{
  "layers": [
    {
      "activation": 1,
      "biases": [
        0.06103044492347524,
        4.556539262585581
      ],
      "cols": 2,
      "rows": 5,
      "weights": [
        [
          1.8593163822582854,
          -3.3246660733305564
        ],
        [
          -5.2862402709894685,
          1.5841721760303156
        ],
        [
          -1.0966160435957593,
          -2.3107441151431862
        ],
        [
          3.9718890011621877,
          -2.362721739568093
        ],
        [
          -0.26183826000069493,
          0.16462588933694602
        ]
      ]
    },
    {
      "activation": 1,
      "biases": [
        1.9584381560090638,
        1.1593341494605895,
        -2.0306021952188704,
        2.2070124297933713,
        1.809324583446479,
        1.3214417707282242,
        1.8054754808205182,
        4.084725906415018,
        -1.2219934635702638,
        -0.49739235324762576,
        -0.7914322908466167,
        1.0930066705044679,
        3.826897226129838
      ],
      "cols": 13,
      "rows": 2,
      "weights": [
        [
          -3.043471240977182,
          -1.410036594424777,
          2.4856804808110446,
          1.2280362420324222,
          0.34263026766262483,
          -0.818292610432117,
          -0.8485417179488729,
          0.026906418489163218,
          6.208229582528374,
          0.4297899573255607,
          -1.8093025206137563,
          -1.1521145451909616,
          -1.9307424276774066
        ],
        [
          2.5917015118025613,
          0.28121250706289364,
          -0.8417693003035597,
          -4.186136966099036,
          -3.3976989496231482,
          -2.370277288491234,
          -1.1716093120534066,
          -4.403600088641117,
          -1.1139342958276077,
          0.17480946520761909,
          1.845860310798338,
          -0.5689470647696326,
          -3.9329571311661518
        ]
      ]
    }
  ]
}
